
#ifdef __has_attribute
#define HAVE_ATTRIBUTE(x) __has_attribute(x)
#else
#define HAVE_ATTRIBUTE(x) 0
#endif
#if HAVE_ATTRIBUTE(aligned) || (defined(__GNUC__) && !defined(__clang__))
#define DATA_ALIGN_ATTRIBUTE __attribute__((aligned(4)))
#else
#define DATA_ALIGN_ATTRIBUTE
#endif

const unsigned char model_data[] DATA_ALIGN_ATTRIBUTE = {0x1c, 0x00, 0x00, 0x00, 0x54, 0x46, 0x4c, 0x33, 0x14, 0x00, 0x20, 0x00, 0x1c, 0x00, 0x18, 0x00, 0x14, 0x00, 0x10, 0x00, 0x0c, 0x00, 0x00, 0x00, 0x08, 0x00, 0x04, 0x00, 0x14, 0x00, 0x00, 0x00, 0x1c, 0x00, 0x00, 0x00, 0x90, 0x00, 0x00, 0x00, 0xe8, 0x00, 0x00, 0x00, 0xe4, 0x16, 0x00, 0x00, 0xf4, 0x16, 0x00, 0x00, 0xb0, 0x1c, 0x00, 0x00, 0x03, 0x00, 0x00, 0x00, 0x01, 0x00, 0x00, 0x00, 0x10, 0x00, 0x00, 0x00, 0x00, 0x00, 0x0a, 0x00, 0x10, 0x00, 0x0c, 0x00, 0x08, 0x00, 0x04, 0x00, 0x0a, 0x00, 0x00, 0x00, 0x0c, 0x00, 0x00, 0x00, 0x1c, 0x00, 0x00, 0x00, 0x38, 0x00, 0x00, 0x00, 0x0f, 0x00, 0x00, 0x00, 0x73, 0x65, 0x72, 0x76, 0x69, 0x6e, 0x67, 0x5f, 0x64, 0x65, 0x66, 0x61, 0x75, 0x6c, 0x74, 0x00, 0x01, 0x00, 0x00, 0x00, 0x04, 0x00, 0x00, 0x00, 0x98, 0xff, 0xff, 0xff, 0x0a, 0x00, 0x00, 0x00, 0x04, 0x00, 0x00, 0x00, 0x07, 0x00, 0x00, 0x00, 0x64, 0x65, 0x6e, 0x73, 0x65, 0x5f, 0x32, 0x00, 0x01, 0x00, 0x00, 0x00, 0x04, 0x00, 0x00, 0x00, 0xfe, 0xe8, 0xff, 0xff, 0x04, 0x00, 0x00, 0x00, 0x0b, 0x00, 0x00, 0x00, 0x64, 0x65, 0x6e, 0x73, 0x65, 0x5f, 0x69, 0x6e, 0x70, 0x75, 0x74, 0x00, 0x02, 0x00, 0x00, 0x00, 0x34, 0x00, 0x00, 0x00, 0x04, 0x00, 0x00, 0x00, 0xdc, 0xff, 0xff, 0xff, 0x0d, 0x00, 0x00, 0x00, 0x04, 0x00, 0x00, 0x00, 0x13, 0x00, 0x00, 0x00, 0x43, 0x4f, 0x4e, 0x56, 0x45, 0x52, 0x53, 0x49, 0x4f, 0x4e, 0x5f, 0x4d, 0x45, 0x54, 0x41, 0x44, 0x41, 0x54, 0x41, 0x00, 0x08, 0x00, 0x0c, 0x00, 0x08, 0x00, 0x04, 0x00, 0x08, 0x00, 0x00, 0x00, 0x0c, 0x00, 0x00, 0x00, 0x04, 0x00, 0x00, 0x00, 0x13, 0x00, 0x00, 0x00, 0x6d, 0x69, 0x6e, 0x5f, 0x72, 0x75, 0x6e, 0x74, 0x69, 0x6d, 0x65, 0x5f, 0x76, 0x65, 0x72, 0x73, 0x69, 0x6f, 0x6e, 0x00, 0x0e, 0x00, 0x00, 0x00, 0xf8, 0x15, 0x00, 0x00, 0xf0, 0x15, 0x00, 0x00, 0xc0, 0x15, 0x00, 0x00, 0xa8, 0x15, 0x00, 0x00, 0x18, 0x15, 0x00, 0x00, 0x08, 0x05, 0x00, 0x00, 0xf8, 0x00, 0x00, 0x00, 0xa8, 0x00, 0x00, 0x00, 0xa0, 0x00, 0x00, 0x00, 0x98, 0x00, 0x00, 0x00, 0x90, 0x00, 0x00, 0x00, 0x88, 0x00, 0x00, 0x00, 0x68, 0x00, 0x00, 0x00, 0x04, 0x00, 0x00, 0x00, 0xae, 0xe9, 0xff, 0xff, 0x04, 0x00, 0x00, 0x00, 0x54, 0x00, 0x00, 0x00, 0x0c, 0x00, 0x00, 0x00, 0x08, 0x00, 0x0e, 0x00, 0x08, 0x00, 0x04, 0x00, 0x08, 0x00, 0x00, 0x00, 0x10, 0x00, 0x00, 0x00, 0x24, 0x00, 0x00, 0x00, 0x00, 0x00, 0x06, 0x00, 0x08, 0x00, 0x04, 0x00, 0x06, 0x00, 0x00, 0x00, 0x04, 0x00, 0x00, 0x00, 0x00, 0x00, 0x00, 0x00, 0x00, 0x00, 0x0a, 0x00, 0x10, 0x00, 0x0c, 0x00, 0x08, 0x00, 0x04, 0x00, 0x0a, 0x00, 0x00, 0x00, 0x02, 0x00, 0x00, 0x00, 0x02, 0x00, 0x00, 0x00, 0x04, 0x00, 0x00, 0x00, 0x06, 0x00, 0x00, 0x00, 0x32, 0x2e, 0x31, 0x31, 0x2e, 0x30, 0x00, 0x00, 0x0e, 0xea, 0xff, 0xff, 0x04, 0x00, 0x00, 0x00, 0x10, 0x00, 0x00, 0x00, 0x31, 0x2e, 0x35, 0x2e, 0x30, 0x00, 0x00, 0x00, 0x00, 0x00, 0x00, 0x00, 0x00, 0x00, 0x00, 0x00, 0x1c, 0xe5, 0xff, 0xff, 0x20, 0xe5, 0xff, 0xff, 0x24, 0xe5, 0xff, 0xff, 0x28, 0xe5, 0xff, 0xff, 0x3a, 0xea, 0xff, 0xff, 0x04, 0x00, 0x00, 0x00, 0x40, 0x00, 0x00, 0x00, 0x97, 0x8c, 0x2f, 0x3e, 0xae, 0x5b, 0x00, 0x3f, 0x47, 0xde, 0x20, 0xbe, 0xd2, 0xe4, 0xdc, 0xbe, 0x30, 0x57, 0x11, 0x3f, 0x8f, 0x1d, 0x5d, 0x3e, 0xc0, 0x9f, 0xab, 0x3e, 0x5b, 0xe5, 0x15, 0x3e, 0x05, 0x45, 0x10, 0x3f, 0xae, 0xb8, 0x2c, 0x3f, 0x16, 0xfe, 0x94, 0x3d, 0xc9, 0x04, 0x31, 0x3f, 0xf2, 0xfc, 0x52, 0x3e, 0x05, 0x01, 0x40, 0xbd, 0xb3, 0x91, 0x88, 0xbe, 0x13, 0x8f, 0x9b, 0xbe, 0x86, 0xea, 0xff, 0xff, 0x04, 0x00, 0x00, 0x00, 0x00, 0x04, 0x00, 0x00, 0xc3, 0x1b, 0x93, 0xbe, 0xff, 0xf9, 0x87, 0xbd, 0x40, 0x1d, 0x17, 0x3e, 0xfb, 0x50, 0x53, 0xbe, 0x20, 0x6e, 0x7d, 0x3e, 0x1d, 0x95, 0x11, 0xbe, 0x4c, 0xaa, 0x74, 0x3e, 0xdc, 0x06, 0x8f, 0x3e, 0x7c, 0x80, 0x16, 0x3e, 0xb1, 0xb2, 0x5b, 0xbe, 0x80, 0x49, 0x21, 0x3d, 0x7b, 0xe7, 0x1b, 0xbe, 0xf5, 0x7a, 0xa2, 0x3e, 0xa1, 0x7e, 0xb4, 0xbe, 0x77, 0xf0, 0x0d, 0x3e, 0x5a, 0xf3, 0x8e, 0x3e, 0x98, 0x94, 0x8e, 0xbd, 0x76, 0x7c, 0x17, 0x3e, 0xb6, 0x4c, 0xaf, 0x3e, 0xc3, 0x77, 0xb4, 0x3e, 0xa9, 0x13, 0xad, 0xbe, 0x86, 0xb0, 0x35, 0xbe, 0xa2, 0xea, 0xa8, 0xbc, 0x58, 0xfc, 0x3e, 0xbe, 0xcc, 0x32, 0xea, 0xbd, 0x7b, 0xa8, 0xb8, 0xbe, 0x0d, 0xd7, 0xb4, 0xbe, 0x25, 0x0e, 0x55, 0x3e, 0x0c, 0xff, 0xaa, 0x3e, 0x86, 0x86, 0xb7, 0x3c, 0x40, 0x13, 0xa2, 0x3c, 0x4b, 0x06, 0x1d, 0x3e, 0x91, 0x0b, 0x78, 0x3e, 0xae, 0xe4, 0xc9, 0xbe, 0x00, 0xae, 0xb0, 0xba, 0x0b, 0xb3, 0x0a, 0xbc, 0xe8, 0xdd, 0xbd, 0xbd, 0x60, 0x03, 0x94, 0x3d, 0xed, 0xc4, 0x4f, 0xbe, 0xb4, 0x98, 0x51, 0x3e, 0xb2, 0xbc, 0xb1, 0xbe, 0x4f, 0xa9, 0x9c, 0xbe, 0xc6, 0x14, 0x3f, 0xbe, 0x18, 0xa3, 0xba, 0x3e, 0x01, 0x46, 0x81, 0x3e, 0x40, 0x8a, 0x06, 0xbe, 0x2a, 0xc9, 0x58, 0xbc, 0x8d, 0xf1, 0x7d, 0xbe, 0x82, 0x52, 0xa4, 0x3e, 0xa9, 0xb0, 0xb4, 0x3e, 0x24, 0x72, 0x23, 0xbe, 0x36, 0x73, 0x24, 0x3e, 0xcf, 0xa7, 0x9f, 0xbe, 0xa6, 0x51, 0x1c, 0xbe, 0xb0, 0x41, 0xc1, 0xbd, 0x76, 0x8a, 0x93, 0x3e, 0x76, 0x1c, 0xd0, 0x3d, 0x48, 0x4d, 0x0d, 0x3d, 0x0a, 0xf2, 0x25, 0xbd, 0x0c, 0xfd, 0x86, 0x3e, 0x84, 0xe8, 0x62, 0xbe, 0x29, 0x32, 0xc5, 0xbe, 0xc4, 0x2d, 0x14, 0xbe, 0x25, 0x17, 0xdf, 0xbe, 0xf5, 0x8e, 0x9b, 0xbe, 0x4e, 0x33, 0x94, 0xbe, 0x98, 0xd4, 0x54, 0xbe, 0x7a, 0x72, 0xad, 0xbe, 0xff, 0x2a, 0xae, 0x3e, 0x1c, 0x40, 0xe9, 0xbd, 0xa5, 0x32, 0xb0, 0x3e, 0x38, 0x85, 0x24, 0x3e, 0x6c, 0x52, 0xd8, 0x3d, 0x8d, 0xcd, 0x9b, 0x3d, 0xe8, 0x06, 0x9c, 0xbd, 0x70, 0x58, 0xd5, 0x3c, 0x34, 0x50, 0x4b, 0xbe, 0x95, 0x02, 0x7b, 0xbe, 0x40, 0xe8, 0x2d, 0xbe, 0x8a, 0x98, 0x82, 0xbe, 0x94, 0xc8, 0x9d, 0xbe, 0x20, 0xdf, 0xb5, 0xbd, 0x80, 0xb7, 0xae, 0xbe, 0x20, 0x2b, 0x81, 0x3e, 0xd7, 0xb3, 0x93, 0x3e, 0x70, 0x4c, 0x59, 0xbd, 0x0c, 0x44, 0x6e, 0x3e, 0x80, 0x25, 0x07, 0x3e, 0x9a, 0x9b, 0x9d, 0xbe, 0xbd, 0xcd, 0xb2, 0xbe, 0x88, 0x10, 0x86, 0x3e, 0x3a, 0xed, 0xae, 0xbe, 0x35, 0xf6, 0x86, 0xbe, 0x1f, 0xf7, 0x06, 0x3d, 0x0c, 0x89, 0x92, 0x3d, 0xe9, 0xc4, 0xf3, 0x3d, 0xdd, 0xfe, 0x8c, 0xbe, 0x67, 0xba, 0x91, 0xbe, 0x80, 0x8b, 0x25, 0xbb, 0x3b, 0x85, 0xd8, 0x3d, 0x9e, 0x46, 0x51, 0xbe, 0x78, 0x0c, 0x71, 0x3e, 0x98, 0xc1, 0x21, 0xbc, 0xb1, 0x31, 0x9d, 0xbe, 0xcd, 0xb6, 0x8a, 0x3e, 0x8b, 0x43, 0x93, 0xbe, 0xda, 0xb6, 0xac, 0x3e, 0x60, 0xc2, 0xe1, 0x3c, 0xd0, 0x5a, 0x02, 0xbe, 0x94, 0x43, 0x31, 0xbe, 0x43, 0x54, 0x48, 0x3d, 0x0e, 0xc0, 0x8e, 0x3e, 0xd2, 0x93, 0x85, 0x3e, 0xa9, 0xeb, 0x1e, 0xbb, 0xc0, 0xc6, 0x48, 0x3c, 0x69, 0x8a, 0x4c, 0xbe, 0xa5, 0x13, 0x87, 0x3e, 0x33, 0xda, 0x94, 0xbe, 0x17, 0x5b, 0xfc, 0x3d, 0x98, 0x4b, 0xa0, 0xbe, 0xe8, 0xc4, 0x80, 0xbe, 0xe4, 0xf2, 0xc6, 0x3d, 0x14, 0x65, 0xbc, 0xbe, 0x98, 0x26, 0xa0, 0x3e, 0xb0, 0x67, 0xa8, 0xbe, 0x53, 0x67, 0x80, 0x3e, 0xea, 0x74, 0x04, 0xbe, 0x4d, 0x7d, 0x2a, 0xbe, 0x8f, 0x0d, 0xc1, 0xbe, 0x5e, 0x7b, 0xc9, 0xbe, 0xac, 0x7f, 0xae, 0xbe, 0x2f, 0x1c, 0xa4, 0xbd, 0xad, 0xc4, 0x70, 0xbe, 0xc8, 0xf1, 0xa4, 0xbe, 0xee, 0xf0, 0x77, 0x3e, 0x30, 0x4f, 0xe1, 0x3c, 0x2f, 0xbf, 0x2e, 0x3e, 0x7b, 0xb4, 0x2c, 0x3e, 0x05, 0x20, 0xab, 0xbe, 0x44, 0xcf, 0xd3, 0xbd, 0xa2, 0xb4, 0x4a, 0xbe, 0x40, 0xc8, 0xec, 0x3c, 0xc8, 0x34, 0x72, 0x3e, 0x8a, 0x92, 0xa9, 0xbe, 0xbe, 0x46, 0x95, 0xbe, 0xe6, 0xc0, 0x8c, 0x3d, 0xb4, 0x36, 0xc3, 0xbe, 0x81, 0xd0, 0xe6, 0xba, 0x00, 0xa7, 0x96, 0x3e, 0xda, 0x53, 0xa2, 0xbe, 0x80, 0x2a, 0xda, 0x3c, 0x0c, 0x71, 0x14, 0xbe, 0x1f, 0x17, 0x84, 0xbe, 0x04, 0x12, 0x13, 0x3e, 0x3b, 0x2e, 0x7f, 0x3e, 0xf7, 0x6a, 0x93, 0x3e, 0x86, 0x56, 0xf5, 0x3c, 0x01, 0xf0, 0x31, 0xbd, 0xac, 0x2c, 0x99, 0x3e, 0xb2, 0x4e, 0xd5, 0x3d, 0xf6, 0xb6, 0x52, 0xbe, 0xfe, 0x70, 0x15, 0x3e, 0x45, 0x7e, 0x99, 0x3e, 0x37, 0x3b, 0xa7, 0xbe, 0x1f, 0x64, 0x4b, 0x3e, 0x6c, 0x48, 0xa1, 0x3d, 0x70, 0x6a, 0x08, 0x3e, 0xaf, 0xe0, 0x2d, 0xbe, 0x7d, 0x8b, 0x80, 0xbd, 0x76, 0xec, 0xac, 0xbe, 0x41, 0xf1, 0x9f, 0xbe, 0x82, 0x55, 0xaa, 0xbe, 0xd7, 0xa0, 0x24, 0xbe, 0x78, 0x9d, 0x0c, 0x3e, 0x7a, 0xab, 0x92, 0xbe, 0x08, 0xf2, 0x5d, 0x3d, 0x6b, 0xcc, 0x37, 0xbe, 0x88, 0x7b, 0xae, 0xbe, 0xf3, 0x8a, 0x17, 0xbe, 0xc3, 0x56, 0xce, 0xbd, 0xe6, 0xac, 0x06, 0x3d, 0xae, 0x84, 0x89, 0x3e, 0x77, 0xdf, 0xbc, 0xbe, 0x8f, 0x55, 0xd9, 0xbe, 0xe2, 0x3a, 0x21, 0xbe, 0x08, 0xfc, 0x15, 0x3e, 0xe6, 0xc9, 0x67, 0x3d, 0xc0, 0xe9, 0x6a, 0x3e, 0x8a, 0x21, 0x60, 0x3d, 0xc0, 0x1f, 0x71, 0x3d, 0x52, 0xd0, 0x9c, 0x3e, 0x76, 0x59, 0xcf, 0x3d, 0x78, 0x75, 0x0c, 0x3d, 0xc5, 0xaa, 0x44, 0x3e, 0xd8, 0x5f, 0x89, 0x3e, 0x1a, 0x59, 0x8d, 0x3e, 0x9b, 0x60, 0x14, 0x3e, 0x35, 0x7e, 0xa3, 0xbe, 0x9d, 0x87, 0xf3, 0xbc, 0x38, 0x52, 0xba, 0x3d, 0xbe, 0x6b, 0x1a, 0xbe, 0xbb, 0x6b, 0xc8, 0xbe, 0xe4, 0xa3, 0x82, 0x3d, 0x84, 0xa3, 0x74, 0x3e, 0x1c, 0x16, 0x46, 0x3e, 0x35, 0xc8, 0x21, 0xbe, 0xcf, 0x43, 0xc2, 0xbe, 0x33, 0x8b, 0xa7, 0xbe, 0x50, 0x1b, 0xc5, 0x3e, 0xbc, 0x88, 0xbf, 0xbe, 0x26, 0xd1, 0xba, 0xbe, 0xec, 0x04, 0x05, 0x3d, 0x3b, 0xa9, 0xb1, 0x3e, 0x34, 0xf3, 0x56, 0x3e, 0x51, 0x3e, 0x5b, 0x3e, 0x91, 0x12, 0x8f, 0x3d, 0x6e, 0xf8, 0x5e, 0xbe, 0xf8, 0x0a, 0x81, 0x3e, 0x7d, 0x5c, 0x3d, 0xbe, 0x43, 0x62, 0x72, 0x3d, 0x6a, 0x3c, 0xd9, 0xbe, 0x7e, 0x84, 0x7e, 0x3d, 0x6c, 0x90, 0xad, 0xbd, 0xd2, 0xf9, 0x58, 0xbe, 0xed, 0x3f, 0x9b, 0xbe, 0xe5, 0xc9, 0x9e, 0xbe, 0x4c, 0xc8, 0xb2, 0x3d, 0x55, 0xb9, 0xe9, 0xbd, 0x33, 0xdb, 0x68, 0x3e, 0x74, 0xab, 0xb4, 0x3d, 0xf4, 0xea, 0x86, 0x3e, 0x14, 0xbe, 0xac, 0x3e, 0x8d, 0xa8, 0xa8, 0xbe, 0xe1, 0x47, 0x92, 0x3d, 0xfc, 0x33, 0x62, 0x3e, 0x00, 0x68, 0x10, 0x3c, 0x95, 0xd0, 0x47, 0xbe, 0xbf, 0x18, 0x9d, 0xbe, 0x08, 0xc9, 0x99, 0xbe, 0x5e, 0x8b, 0xb8, 0xbe, 0x18, 0xf6, 0xb1, 0xbd, 0xc0, 0xd1, 0xe6, 0xbc, 0x0e, 0xf6, 0x93, 0xbe, 0x81, 0xdf, 0xbf, 0xbe, 0xf6, 0x48, 0xaa, 0x3e, 0x60, 0x96, 0x22, 0x3d, 0x90, 0x41, 0xfe, 0x3c, 0xf4, 0xad, 0x0b, 0xbe, 0x60, 0x35, 0xfa, 0xbc, 0x39, 0xd2, 0x91, 0xbe, 0x60, 0x04, 0xf9, 0x3d, 0x74, 0xb9, 0x0c, 0x3e, 0x86, 0x28, 0x86, 0x3e, 0x3b, 0xec, 0xc1, 0xbd, 0x17, 0x1d, 0xc5, 0xbe, 0x82, 0xf8, 0x71, 0xbe, 0x92, 0xee, 0xff, 0xff, 0x04, 0x00, 0x00, 0x00, 0x00, 0x10, 0x00, 0x00, 0x83, 0xf6, 0xda, 0xbc, 0x54, 0xea, 0x48, 0x3d, 0xd9, 0xd1, 0x31, 0xbe, 0xfc, 0xa8, 0x18, 0xbd, 0x0d, 0xa2, 0xf1, 0xbd, 0x63, 0x03, 0x02, 0x3e, 0x52, 0x24, 0x6b, 0xbe, 0x40, 0xc0, 0x76, 0x3d, 0xe6, 0xf1, 0x8a, 0x3e, 0xac, 0x00, 0x58, 0xbd, 0x1c, 0xd9, 0x2a, 0xbe, 0x9c, 0x0f, 0x76, 0xbe, 0xfd, 0x00, 0x33, 0x3e, 0x2c, 0xb0, 0x7a, 0x3e, 0xff, 0xe1, 0x44, 0x3e, 0x06, 0x77, 0x2b, 0xbe, 0x53, 0x6d, 0x5d, 0xbe, 0x9e, 0x0f, 0x91, 0xbd, 0x5e, 0x84, 0x50, 0xbe, 0xcb, 0xb9, 0xdb, 0xbd, 0x93, 0x4c, 0x34, 0xbe, 0x39, 0xf1, 0x23, 0x3e, 0xe5, 0xe2, 0x0c, 0xbe, 0x6f, 0x80, 0x74, 0x3e, 0x25, 0xab, 0x4d, 0xbe, 0x5c, 0x3b, 0xde, 0xbd, 0x57, 0x4e, 0x3f, 0x3c, 0xde, 0x15, 0x5f, 0xbe, 0xc4, 0x3a, 0x01, 0xbe, 0xbc, 0xfd, 0x93, 0x3e, 0xdb, 0x24, 0x75, 0x3e, 0x79, 0x71, 0xcc, 0x3d, 0x1b, 0x69, 0x6e, 0xbe, 0xae, 0x5b, 0x62, 0xbe, 0xa4, 0x05, 0xc2, 0x3b, 0xf3, 0x8d, 0x14, 0xbe, 0x74, 0xbd, 0xd8, 0x3a, 0x46, 0xb6, 0xf0, 0x3d, 0x0b, 0xce, 0x8e, 0xbe, 0x82, 0x1c, 0xeb, 0x3d, 0x69, 0x1a, 0xcc, 0x3d, 0xf1, 0x4c, 0x8e, 0xbe, 0x35, 0x03, 0x6e, 0x3e, 0x37, 0xc8, 0x57, 0x3e, 0xf5, 0xbf, 0x75, 0x3e, 0xc0, 0x65, 0x5e, 0xbe, 0x07, 0xad, 0xee, 0x3d, 0x23, 0x43, 0xa2, 0xbe, 0x83, 0x20, 0x37, 0x3e, 0x41, 0xb9, 0x22, 0x3e, 0x41, 0xe7, 0x86, 0xbe, 0xad, 0xa4, 0x12, 0x3c, 0x6a, 0x4f, 0x18, 0x3e, 0x9c, 0x34, 0x1b, 0x3e, 0xe5, 0xb3, 0x7a, 0x3e, 0x6d, 0xd6, 0xb4, 0xbe, 0xda, 0xdc, 0xa4, 0x3c, 0xa9, 0xe3, 0x91, 0xbe, 0x2c, 0x0e, 0x02, 0x3e, 0x8a, 0x4d, 0xea, 0xbc, 0x7d, 0x37, 0x29, 0x3e, 0x03, 0x38, 0x9e, 0xbd, 0xb9, 0x1a, 0xff, 0xbd, 0x2f, 0x69, 0x84, 0x3c, 0x36, 0x89, 0xa1, 0x3c, 0x25, 0x14, 0x2a, 0xbd, 0x05, 0x40, 0x93, 0x3e, 0x08, 0x50, 0x8e, 0x3d, 0xca, 0x33, 0x82, 0xbe, 0x60, 0xc7, 0x43, 0xbe, 0x42, 0xc6, 0x90, 0xbe, 0x86, 0xad, 0xab, 0x3d, 0xde, 0x16, 0x78, 0xbd, 0x8a, 0xf6, 0xab, 0x3d, 0x63, 0xe8, 0x3c, 0xbe, 0x46, 0xf8, 0x13, 0x3e, 0x3e, 0x86, 0x88, 0xbe, 0xc6, 0xb2, 0x44, 0x3e, 0xf5, 0x1c, 0x76, 0xbe, 0xa7, 0x37, 0x0f, 0x3c, 0x20, 0xc5, 0xd9, 0x3d, 0xdf, 0x3f, 0x1a, 0xbe, 0x45, 0x5f, 0x18, 0xbe, 0x2b, 0xaf, 0x8d, 0xbe, 0x68, 0x2e, 0x90, 0x3e, 0x9d, 0xe1, 0x3e, 0xbe, 0xcb, 0x97, 0x12, 0xbe, 0xa0, 0xfb, 0xde, 0x3d, 0xdd, 0x7a, 0x50, 0x3e, 0x48, 0xa6, 0x83, 0xbe, 0xfc, 0xa9, 0x70, 0x3e, 0x97, 0xeb, 0x0a, 0x3e, 0xab, 0xcf, 0x88, 0x3e, 0xc7, 0xc0, 0xd7, 0x3c, 0x91, 0xea, 0x0c, 0xbe, 0xcb, 0x9d, 0xa5, 0x3d, 0x7a, 0x4e, 0x3c, 0xbe, 0x17, 0xa6, 0x6e, 0x3e, 0xdc, 0xe9, 0x48, 0xbe, 0x1a, 0x29, 0x77, 0x3e, 0xe9, 0xc5, 0x74, 0xbe, 0x83, 0xe7, 0x49, 0xbe, 0x8c, 0xf5, 0x44, 0x3e, 0xae, 0x54, 0xa7, 0xbe, 0x13, 0x57, 0x20, 0x3e, 0x72, 0xb5, 0x04, 0xbd, 0xe1, 0xbf, 0x2b, 0x3e, 0x2d, 0x40, 0xf2, 0xbd, 0x6a, 0x75, 0x83, 0xbe, 0xc4, 0x64, 0x58, 0x3e, 0xb6, 0xfa, 0x3a, 0x3d, 0x38, 0xc7, 0x17, 0xbe, 0xf9, 0x5f, 0xfc, 0xbb, 0x3d, 0x9c, 0x51, 0x3e, 0x00, 0x3a, 0x8b, 0xbd, 0xe7, 0x03, 0x3d, 0x3e, 0x16, 0x38, 0x8f, 0xbe, 0x3b, 0x1c, 0x03, 0xbd, 0xdb, 0xb0, 0xec, 0x3d, 0xff, 0xc0, 0x67, 0x3e, 0x96, 0x8e, 0x01, 0x3e, 0x00, 0x4a, 0x74, 0x3e, 0xf7, 0x49, 0x14, 0xbd, 0xe4, 0x13, 0xa3, 0xbb, 0x85, 0x36, 0x96, 0xbe, 0xb6, 0x4b, 0x5c, 0xbe, 0x2e, 0xa0, 0x77, 0xbe, 0xfe, 0x79, 0x10, 0x3e, 0xed, 0x56, 0x70, 0x3e, 0x29, 0x88, 0xd6, 0xbd, 0x6f, 0x09, 0x24, 0x3e, 0xa6, 0x19, 0x8d, 0xbe, 0x62, 0xae, 0x46, 0x3c, 0x4f, 0x9d, 0x0a, 0xbe, 0x76, 0xd5, 0x91, 0xbe, 0xb2, 0xcc, 0x0c, 0x3e, 0x89, 0xed, 0x01, 0xbe, 0x69, 0x12, 0xb9, 0x3d, 0xf5, 0xb1, 0x5f, 0x3e, 0xe7, 0x9b, 0x25, 0xbe, 0x13, 0xc9, 0xeb, 0x3d, 0x6b, 0x7f, 0x05, 0xbd, 0xcc, 0x3d, 0x7d, 0xbe, 0x4a, 0x97, 0x0b, 0xbe, 0xfb, 0x1b, 0x69, 0x3e, 0x96, 0x8b, 0x69, 0x3e, 0x98, 0xc8, 0x5d, 0xbe, 0xbd, 0x83, 0xed, 0x3b, 0x7e, 0x15, 0x6b, 0x3e, 0x29, 0x54, 0xa5, 0x3d, 0x8e, 0xa4, 0x21, 0x3e, 0x80, 0x0d, 0xdb, 0x39, 0x33, 0x60, 0x80, 0xbe, 0xec, 0x4b, 0x1b, 0xbe, 0x3c, 0x06, 0x5a, 0xbe, 0x7d, 0x18, 0xcc, 0x3d, 0x0e, 0xf8, 0x8c, 0xbe, 0x45, 0xd3, 0x22, 0x3e, 0x49, 0x00, 0x29, 0xbe, 0xc3, 0xb9, 0x5f, 0x3e, 0x58, 0x9f, 0xb2, 0x3d, 0x80, 0x2f, 0x4f, 0x3d, 0xb2, 0x21, 0x82, 0xbe, 0x98, 0xb4, 0x94, 0x3d, 0x03, 0x30, 0x70, 0xbe, 0x70, 0xf1, 0xbe, 0x3d, 0xba, 0x3e, 0x1f, 0x3e, 0x3a, 0xcd, 0x4e, 0x3e, 0xa6, 0x39, 0x6b, 0xbe, 0x78, 0x3e, 0x83, 0x3d, 0x51, 0x17, 0x86, 0x3e, 0x2c, 0x46, 0x51, 0xbe, 0x38, 0xe3, 0x28, 0xbe, 0xcf, 0x7c, 0x2d, 0xbe, 0x1a, 0x55, 0xca, 0xbd, 0xa4, 0x73, 0x90, 0x3d, 0xe4, 0xdc, 0x8c, 0xbd, 0x0c, 0x50, 0x27, 0x3e, 0xee, 0x8e, 0x47, 0x3e, 0x69, 0x6b, 0x51, 0xbe, 0xe6, 0x84, 0x6f, 0x3e, 0x7c, 0x4c, 0xff, 0xbd, 0x45, 0x16, 0x36, 0xbe, 0xd0, 0x84, 0x0b, 0x3e, 0xc4, 0xd8, 0x65, 0xbe, 0x2d, 0x11, 0x8f, 0x3e, 0xfc, 0xce, 0x78, 0xbe, 0xce, 0xa3, 0x23, 0x3e, 0xb4, 0xb3, 0x77, 0xbe, 0x82, 0xcc, 0x7b, 0x3e, 0x71, 0xc3, 0x93, 0xbe, 0xa9, 0xaf, 0x20, 0xbe, 0x6b, 0x93, 0x49, 0x3e, 0x3a, 0x90, 0x8e, 0x3d, 0x0f, 0xb8, 0x68, 0x3e, 0x04, 0x0a, 0xff, 0xbd, 0x91, 0x48, 0xb5, 0xbd, 0xdf, 0x8a, 0x9c, 0xbd, 0x2d, 0x56, 0x0c, 0xbd, 0x5e, 0xee, 0x3e, 0x3e, 0xa6, 0xba, 0x67, 0x3d, 0x56, 0x79, 0x00, 0xbe, 0x9b, 0xef, 0x8d, 0xbe, 0x72, 0xc7, 0x5d, 0xbc, 0xd4, 0x3c, 0x2a, 0x3c, 0x52, 0x55, 0x05, 0x3e, 0x1a, 0x35, 0x17, 0x3d, 0xce, 0x7c, 0x1f, 0x3e, 0x6e, 0xb7, 0x59, 0xbe, 0x51, 0x51, 0xa9, 0xbe, 0x81, 0x0b, 0xd3, 0x3c, 0x86, 0x0e, 0x1f, 0xbd, 0x46, 0x03, 0xd5, 0x3d, 0x1d, 0x5f, 0x2a, 0x3d, 0x10, 0xde, 0xc7, 0xbc, 0xe2, 0x0b, 0x9b, 0xba, 0x80, 0x9d, 0x69, 0xbe, 0x78, 0x03, 0x83, 0x3e, 0xd0, 0x47, 0xaf, 0xbd, 0xde, 0x47, 0x91, 0xbe, 0x80, 0xbf, 0x50, 0xbd, 0x1f, 0x87, 0x42, 0x3e, 0xb8, 0xfc, 0x31, 0x3d, 0x9b, 0xba, 0x04, 0xbe, 0x4f, 0x08, 0x18, 0xbe, 0x8a, 0x12, 0x04, 0xbe, 0xdc, 0x90, 0x34, 0xbe, 0x54, 0xd3, 0x91, 0x3d, 0x3e, 0xb5, 0xe8, 0xbd, 0x2e, 0xd2, 0x46, 0x3e, 0x56, 0x3f, 0x57, 0x3e, 0x31, 0x81, 0x81, 0x3e, 0x34, 0x35, 0x8e, 0x3d, 0xb2, 0x3b, 0x2c, 0x3e, 0x02, 0x3a, 0xbb, 0xbd, 0xf8, 0x27, 0x5d, 0xbd, 0xa4, 0x2a, 0xb5, 0xbd, 0xf8, 0x39, 0x94, 0x3d, 0x49, 0x17, 0x51, 0xbe, 0x81, 0x5f, 0x34, 0xbe, 0x93, 0xa4, 0x8e, 0xbe, 0x50, 0x1a, 0x8d, 0xbc, 0x9a, 0x5c, 0x55, 0xbe, 0xa4, 0x45, 0xb7, 0xbd, 0x80, 0x18, 0x0f, 0xbd, 0xe8, 0x42, 0x89, 0xbe, 0x80, 0x39, 0x99, 0x3c, 0xec, 0x1a, 0x23, 0x3e, 0x4c, 0x43, 0x97, 0x3d, 0x26, 0xdb, 0x88, 0xbe, 0x37, 0x43, 0x88, 0xbe, 0xf6, 0x94, 0x5b, 0xbe, 0x71, 0x22, 0x51, 0xbe, 0x30, 0xd0, 0x70, 0xbe, 0x00, 0x30, 0x8f, 0x3d, 0x08, 0x28, 0x12, 0x3e, 0x03, 0x69, 0x8e, 0x3c, 0xa4, 0xbb, 0x97, 0xbd, 0x54, 0x44, 0x06, 0x3e, 0x79, 0xf3, 0x6c, 0xbc, 0x98, 0x75, 0xad, 0xbe, 0x82, 0x91, 0x43, 0x3e, 0x70, 0xee, 0x2f, 0x3d, 0xec, 0xad, 0x8c, 0xbb, 0x34, 0xaf, 0x17, 0x3e, 0xb4, 0x00, 0xdf, 0x3d, 0x4d, 0x9e, 0x9d, 0xbe, 0xbd, 0x8e, 0x0d, 0xbe, 0xcd, 0x60, 0x46, 0x3e, 0x51, 0x7f, 0x1e, 0x3e, 0x31, 0x04, 0xaf, 0x3d, 0x1c, 0xeb, 0x42, 0xbe, 0x62, 0x70, 0xf9, 0x3a, 0xf1, 0x75, 0x27, 0xbe, 0xf4, 0xa5, 0x06, 0x3e, 0xd5, 0x1a, 0x5f, 0x3d, 0xc7, 0x25, 0xca, 0xbd, 0xff, 0xb5, 0xbd, 0x3d, 0x51, 0x42, 0x18, 0xbe, 0x3f, 0x55, 0x20, 0xbe, 0xce, 0xb0, 0xd4, 0x3d, 0xee, 0x31, 0x3e, 0x3d, 0xab, 0xa0, 0xeb, 0xbd, 0x09, 0xab, 0xc8, 0x3d, 0xdf, 0x80, 0xb5, 0xbe, 0xea, 0x78, 0x4f, 0xbe, 0xa3, 0x3b, 0x4c, 0xbe, 0x4f, 0xfb, 0x40, 0xbd, 0xd8, 0xf0, 0xc1, 0x3d, 0x8d, 0x7d, 0x23, 0xbe, 0xa4, 0x60, 0x4b, 0x3a, 0x99, 0x1d, 0x71, 0xbe, 0xbd, 0xb0, 0x71, 0xbe, 0x5f, 0x63, 0x16, 0xbe, 0x74, 0x21, 0x19, 0x3e, 0x09, 0xf1, 0x25, 0x3e, 0xc4, 0x8f, 0x27, 0xbe, 0xdb, 0x98, 0x6f, 0x3e, 0x37, 0x1f, 0x2b, 0xbe, 0x3e, 0xfa, 0x25, 0xbe, 0x5f, 0xd3, 0x83, 0xbd, 0xdc, 0xdc, 0xd1, 0xbd, 0x59, 0x9a, 0xb8, 0x3d, 0x50, 0x59, 0x7d, 0x3e, 0x72, 0x59, 0x81, 0xbe, 0xcd, 0x9f, 0x5c, 0x3e, 0xc8, 0xae, 0x71, 0x3e, 0x11, 0x51, 0x48, 0xbd, 0xb5, 0x3d, 0x7d, 0xbe, 0xe7, 0xa7, 0x22, 0x3d, 0x52, 0x37, 0x40, 0x3e, 0x7f, 0xd0, 0x60, 0xbe, 0x6a, 0xf4, 0x6e, 0xbe, 0xc7, 0x5e, 0x90, 0x3e, 0x76, 0x28, 0xa7, 0xbd, 0x38, 0xa8, 0x3b, 0xbe, 0xd1, 0x83, 0xe7, 0xbd, 0x38, 0xc5, 0x99, 0x3d, 0xd2, 0x3c, 0x61, 0x3e, 0xa5, 0xf9, 0xdb, 0x3d, 0xe0, 0xf4, 0x63, 0xbe, 0xa3, 0x81, 0x8b, 0xbe, 0xec, 0xd0, 0x8c, 0xbe, 0xc3, 0x07, 0x99, 0xbe, 0x04, 0x1b, 0x15, 0x3e, 0xc6, 0x04, 0x3b, 0xbe, 0xd7, 0x92, 0x82, 0xbe, 0x46, 0x7f, 0x4b, 0xbe, 0xe2, 0xa9, 0xb3, 0xbd, 0xd4, 0x6a, 0xfa, 0x3d, 0xc0, 0xd8, 0xc8, 0xbb, 0x66, 0x1e, 0x63, 0x3e, 0xbe, 0x52, 0x86, 0xbe, 0xaa, 0x7e, 0xba, 0xbd, 0xa8, 0x20, 0x5e, 0xbe, 0xc5, 0x0a, 0x89, 0x3e, 0x68, 0xcb, 0x45, 0x3d, 0xf0, 0xba, 0xf4, 0xbc, 0x90, 0xd1, 0x26, 0x3d, 0x4c, 0x5f, 0xf6, 0x3d, 0x18, 0x86, 0x13, 0xbd, 0x9c, 0xb0, 0x9b, 0xbd, 0xc8, 0x2a, 0x86, 0x3d, 0x54, 0xb9, 0x97, 0xbd, 0x1f, 0xb1, 0x81, 0x3e, 0x7d, 0xcd, 0x98, 0x3e, 0xd2, 0xd2, 0x38, 0x3e, 0x00, 0x07, 0x4d, 0xbe, 0x58, 0x08, 0x66, 0x3d, 0x10, 0x6e, 0x2d, 0xbd, 0x62, 0x8f, 0x41, 0x3e, 0x8e, 0x4f, 0x0b, 0x3e, 0x0e, 0x28, 0x5f, 0xbe, 0xfb, 0xd9, 0x1b, 0xbe, 0x98, 0x03, 0x40, 0xbe, 0xe0, 0x85, 0xee, 0x3d, 0xf2, 0xac, 0xd6, 0xbd, 0xea, 0xa9, 0x7e, 0x3e, 0xa4, 0x94, 0x50, 0xbe, 0x81, 0x21, 0x8b, 0xbe, 0x90, 0x7e, 0x99, 0x3c, 0xc2, 0x1f, 0x6b, 0x3e, 0x7e, 0x6e, 0x89, 0xbe, 0xef, 0x5f, 0x98, 0x3e, 0xc0, 0xcd, 0xd3, 0x3d, 0xdc, 0xb9, 0x20, 0xbe, 0x5e, 0x19, 0x4d, 0x3e, 0xbd, 0x11, 0x8f, 0xbe, 0xd0, 0x69, 0x17, 0xbd, 0x00, 0xde, 0x14, 0xba, 0xb8, 0x01, 0x3c, 0x3d, 0xf9, 0xed, 0x8a, 0x3e, 0xf3, 0x1b, 0x28, 0xbe, 0x28, 0xb3, 0x57, 0x3d, 0xdb, 0xdf, 0x1f, 0xbe, 0x86, 0x44, 0xff, 0xbd, 0x69, 0x30, 0x80, 0xbe, 0x48, 0x95, 0x01, 0x3d, 0xcf, 0x2c, 0x96, 0xbe, 0x60, 0xe2, 0xde, 0x3d, 0xd9, 0x5a, 0x05, 0xbe, 0xe6, 0x3b, 0x6d, 0x3e, 0xb4, 0x34, 0x10, 0xbe, 0x84, 0xdd, 0x24, 0x3e, 0xd0, 0xb5, 0x84, 0x3d, 0xce, 0xca, 0x7e, 0x3e, 0xe0, 0x3e, 0x98, 0xbe, 0x5e, 0x4d, 0x2b, 0x3e, 0x41, 0x61, 0x1b, 0xbe, 0x68, 0xb7, 0x54, 0xbd, 0xca, 0x0d, 0x24, 0x3e, 0xfd, 0x55, 0x8f, 0x3e, 0x29, 0x76, 0x48, 0xbd, 0x22, 0x34, 0x23, 0xbd, 0xe7, 0x09, 0xa3, 0xbe, 0xf8, 0x91, 0x1c, 0xbe, 0x0b, 0x2b, 0x35, 0x3d, 0x6a, 0x09, 0x1c, 0xbe, 0x8f, 0x1f, 0xc0, 0xbc, 0x2f, 0x7f, 0x1c, 0x3d, 0x19, 0x49, 0x5e, 0xbc, 0x14, 0x30, 0xf1, 0xbd, 0x26, 0x18, 0x4e, 0x3e, 0x7b, 0x76, 0xaf, 0x3d, 0xf6, 0x0e, 0x85, 0x3d, 0xb8, 0x6b, 0xb5, 0xbd, 0xae, 0xa7, 0x52, 0x3e, 0x2b, 0xc4, 0xb1, 0xbd, 0x31, 0x61, 0xa9, 0xbd, 0xc2, 0x93, 0x1d, 0x3d, 0x28, 0x1c, 0xb4, 0xbd, 0x58, 0xaf, 0xa1, 0xbd, 0xe8, 0x1e, 0xa5, 0xbc, 0xa4, 0x6d, 0xc5, 0xbd, 0x6a, 0x75, 0x2c, 0xbe, 0x66, 0x75, 0xc6, 0x3d, 0xaa, 0x08, 0x49, 0x3e, 0x78, 0x95, 0x13, 0x3d, 0x40, 0x52, 0xd8, 0x3c, 0x46, 0xc2, 0x51, 0xbe, 0x80, 0x80, 0xfc, 0x3c, 0xe5, 0x3f, 0x25, 0xbe, 0xc2, 0xea, 0x94, 0xbe, 0x56, 0x46, 0x8d, 0xbe, 0xfb, 0xc3, 0x97, 0xbe, 0xe8, 0x6b, 0x5c, 0xbd, 0xea, 0x69, 0x75, 0xbe, 0xb6, 0xcc, 0x39, 0x3e, 0xb6, 0xfe, 0x96, 0xbd, 0xaa, 0x7f, 0x2b, 0x3e, 0xea, 0xdd, 0xb5, 0xbd, 0xb8, 0xf8, 0x98, 0xbd, 0x6c, 0xff, 0xdd, 0x3d, 0x24, 0xd1, 0xe4, 0x3d, 0xd0, 0x19, 0xd0, 0xbc, 0x4e, 0x93, 0x66, 0x3e, 0x28, 0x25, 0xb0, 0xbd, 0x43, 0xe9, 0x20, 0xbe, 0x00, 0x91, 0xb4, 0xbb, 0x98, 0x27, 0x06, 0x3d, 0x70, 0xdf, 0x95, 0x3c, 0xf1, 0x27, 0x63, 0xbe, 0x9a, 0x9e, 0x3a, 0x3e, 0xe8, 0x50, 0xc4, 0x3d, 0xda, 0x23, 0x5e, 0xbe, 0xb0, 0x75, 0x72, 0xbe, 0xba, 0x0f, 0xfd, 0xbd, 0xa7, 0x8d, 0x80, 0x3e, 0x67, 0xd8, 0x91, 0xbe, 0x92, 0x0b, 0xcd, 0x3d, 0x73, 0x5a, 0xae, 0xbe, 0xc3, 0x8a, 0x5a, 0x3e, 0xd7, 0x64, 0xee, 0x3d, 0xeb, 0x30, 0x0a, 0x3e, 0x71, 0x54, 0x28, 0x3e, 0xc2, 0x41, 0xd5, 0x3d, 0xa7, 0xd6, 0x8a, 0xbe, 0x3b, 0x26, 0x48, 0xbe, 0x8c, 0x5b, 0xac, 0xbe, 0x7c, 0x01, 0x69, 0xbe, 0xc8, 0xa1, 0xc5, 0x3d, 0x81, 0x1d, 0x06, 0x3d, 0x63, 0x96, 0x2c, 0x3e, 0xec, 0x99, 0x94, 0xbe, 0x72, 0xc8, 0xa1, 0xbd, 0x21, 0x01, 0xed, 0x3d, 0x59, 0x83, 0xae, 0x3d, 0xe3, 0xee, 0x8c, 0x3c, 0x1e, 0xcc, 0x08, 0xbe, 0xcb, 0x13, 0x2e, 0x3d, 0xeb, 0x7e, 0x24, 0x3e, 0x31, 0x4e, 0x3b, 0x3e, 0xf2, 0xea, 0x46, 0x3e, 0x88, 0x69, 0x3c, 0x3e, 0xe3, 0x4f, 0x95, 0xbe, 0xb1, 0xaf, 0x8f, 0x3d, 0x6a, 0x0a, 0xb3, 0xbd, 0x8d, 0xc8, 0xf0, 0xbd, 0x33, 0x9c, 0x4c, 0x3e, 0x0b, 0x33, 0x4a, 0xbe, 0x5f, 0x95, 0x96, 0xbe, 0xcc, 0xed, 0x37, 0xbe, 0x60, 0x66, 0x86, 0x3d, 0x8a, 0xc0, 0x5c, 0x3e, 0x1c, 0xf7, 0x8d, 0xbe, 0xe2, 0x40, 0x26, 0xbe, 0x79, 0x8b, 0x67, 0xbe, 0x10, 0x21, 0xbd, 0xbc, 0xa2, 0x7c, 0x3c, 0x3e, 0xc2, 0x56, 0xbf, 0xbd, 0xe4, 0x38, 0xce, 0x3d, 0x3d, 0x16, 0x87, 0x3e, 0x65, 0x74, 0x97, 0x3e, 0x84, 0x3c, 0xfe, 0x3d, 0x4e, 0x7a, 0x33, 0xbe, 0xe8, 0xb4, 0xca, 0x3d, 0x5e, 0x06, 0xf0, 0xbd, 0x58, 0xc5, 0x6d, 0xbe, 0x8d, 0xa0, 0x8c, 0x3e, 0x88, 0x75, 0xbc, 0xbd, 0x50, 0x1e, 0x2d, 0xbd, 0x40, 0xde, 0x66, 0xbc, 0xb7, 0xf1, 0x74, 0xbe, 0x18, 0xbd, 0xe1, 0x3d, 0x38, 0xc0, 0x71, 0xbe, 0xbc, 0x72, 0x11, 0x3e, 0xf4, 0x03, 0xb6, 0xbd, 0x9c, 0x4d, 0xde, 0xbd, 0x1a, 0x7b, 0x47, 0x3e, 0x24, 0x26, 0x59, 0xbe, 0x85, 0x63, 0x95, 0xbe, 0xf4, 0x87, 0x5a, 0xbe, 0x58, 0x91, 0x88, 0x3d, 0x78, 0xa3, 0x10, 0xbd, 0x93, 0x15, 0x3d, 0xbe, 0x4c, 0xcd, 0x0c, 0x3e, 0x3c, 0x65, 0x63, 0xbe, 0x04, 0x65, 0x75, 0xbe, 0x32, 0x26, 0xdf, 0xbd, 0x1d, 0x40, 0x8c, 0xbe, 0xec, 0xec, 0x0b, 0x3e, 0x40, 0x7f, 0x89, 0x3b, 0x10, 0xcc, 0x53, 0xbd, 0x88, 0x71, 0x35, 0x3d, 0xe5, 0x34, 0x92, 0xbe, 0xc0, 0x65, 0x83, 0x3c, 0xac, 0x77, 0x3f, 0x3e, 0x0a, 0x6c, 0x7d, 0xbe, 0xa8, 0x6c, 0xe6, 0x3d, 0xb0, 0x1a, 0x80, 0xbe, 0xc8, 0xd6, 0x51, 0xbd, 0x84, 0x6f, 0x89, 0xbd, 0x4c, 0x29, 0x92, 0xbe, 0xb0, 0xad, 0x63, 0xbd, 0x50, 0x05, 0xcf, 0x3d, 0xeb, 0x27, 0x10, 0xbe, 0xe8, 0x5c, 0x41, 0xbd, 0xd1, 0x99, 0x83, 0x3e, 0xfc, 0x15, 0xaf, 0x3d, 0x99, 0xd1, 0x8a, 0x3e, 0x90, 0xd8, 0x8a, 0x3c, 0x96, 0xfb, 0x0a, 0xbe, 0xc6, 0x45, 0x63, 0x3e, 0xa0, 0xec, 0x5d, 0xbd, 0xac, 0xd6, 0x49, 0xbe, 0x26, 0xaa, 0x8d, 0xbd, 0x13, 0x2c, 0x44, 0x3e, 0x38, 0x60, 0x03, 0x3e, 0x82, 0x8e, 0xbc, 0x3d, 0x15, 0xfa, 0x97, 0x3e, 0x45, 0xbe, 0x80, 0xbd, 0xbe, 0x2e, 0x14, 0xbe, 0x4f, 0xe5, 0xf6, 0x3d, 0x12, 0x37, 0x81, 0x3e, 0xce, 0xe8, 0x66, 0xbe, 0x8a, 0x49, 0x31, 0x3e, 0x8d, 0xf6, 0x68, 0xbe, 0x3b, 0x37, 0xb1, 0x3c, 0x5d, 0x07, 0x6d, 0x3e, 0x15, 0xa7, 0x98, 0xbe, 0x9a, 0x31, 0x15, 0xbe, 0x9d, 0xdd, 0x16, 0x3d, 0xf5, 0x38, 0x6e, 0xbe, 0xc0, 0xda, 0x6f, 0x3e, 0xd6, 0x5c, 0x45, 0x3e, 0x3d, 0x00, 0x87, 0xbe, 0xa5, 0xc3, 0x8e, 0x3e, 0xc0, 0x36, 0x83, 0xbe, 0xc6, 0xff, 0x68, 0x3e, 0x98, 0x43, 0x89, 0x3e, 0x4a, 0xde, 0x7e, 0xbe, 0x16, 0x31, 0xf1, 0xbd, 0xf2, 0xd7, 0x51, 0xbe, 0x73, 0x14, 0x4b, 0xbe, 0x48, 0x5a, 0x90, 0xbd, 0x4d, 0xd8, 0x7c, 0xbe, 0x12, 0x33, 0xe4, 0xbd, 0x59, 0xe0, 0x87, 0x3e, 0x5d, 0x7f, 0x81, 0x3e, 0xa6, 0x58, 0x66, 0x3e, 0x82, 0x9d, 0x98, 0xbe, 0xb4, 0xe2, 0x49, 0xbe, 0xe8, 0x08, 0x57, 0xbd, 0x4c, 0x0e, 0x46, 0xbe, 0x98, 0x3a, 0x4a, 0xbd, 0xf0, 0xa7, 0xb7, 0x3c, 0x80, 0x32, 0x2b, 0x3b, 0x44, 0x12, 0xf7, 0xbd, 0xcd, 0x29, 0x8b, 0x3e, 0x40, 0x8a, 0x38, 0xbd, 0xcc, 0xf9, 0x75, 0xbd, 0x00, 0xcb, 0xfe, 0xbc, 0xac, 0xbf, 0x48, 0xbe, 0xee, 0x81, 0x1d, 0x3e, 0x80, 0x6e, 0xe7, 0xbd, 0x50, 0x34, 0xf6, 0xbc, 0x4c, 0x80, 0xbc, 0x3d, 0x02, 0x86, 0xec, 0xbd, 0xec, 0xee, 0x99, 0xbe, 0x40, 0xdd, 0x7c, 0x3c, 0x72, 0xaa, 0x62, 0xbe, 0xe1, 0x6a, 0x95, 0xbe, 0x34, 0xc9, 0x18, 0x3e, 0x56, 0x3d, 0x65, 0x3e, 0xb8, 0xb6, 0x7e, 0xbe, 0x84, 0x9b, 0x8f, 0x3d, 0x9c, 0x59, 0xe7, 0x3d, 0xb4, 0xad, 0x78, 0xbd, 0xf7, 0x81, 0x82, 0xbe, 0xbe, 0x2a, 0xba, 0x3d, 0x60, 0x26, 0xb9, 0xbe, 0x39, 0x64, 0x1a, 0xbe, 0xcb, 0x97, 0x68, 0xbe, 0x80, 0x9b, 0x8e, 0x3d, 0x8b, 0xc7, 0x79, 0x3d, 0xd7, 0xad, 0x01, 0x3d, 0x13, 0xfb, 0xe9, 0x3d, 0xb8, 0xd9, 0x39, 0xbe, 0x34, 0x0a, 0x74, 0xbe, 0xce, 0xec, 0x56, 0x3e, 0xca, 0xeb, 0x11, 0x3e, 0xd5, 0xb0, 0x83, 0xbe, 0xa0, 0x5a, 0xfc, 0xbc, 0xe2, 0xcf, 0x1b, 0x3e, 0xd3, 0x69, 0x6c, 0xbd, 0x45, 0xe3, 0x32, 0x3e, 0xda, 0xc1, 0x90, 0x3c, 0xc5, 0xf8, 0x19, 0xbe, 0xc8, 0x07, 0x60, 0x3e, 0x7a, 0x79, 0x5a, 0x3e, 0xa4, 0x84, 0x87, 0xbe, 0xc2, 0x8e, 0x0a, 0x3e, 0x40, 0xb9, 0xea, 0xbd, 0xa2, 0x05, 0xc6, 0xbd, 0x6d, 0xb7, 0x11, 0x3c, 0x37, 0x1e, 0xbb, 0xbe, 0xb9, 0xca, 0x62, 0x3e, 0x09, 0x2a, 0x33, 0x3e, 0xda, 0x06, 0x0b, 0xbe, 0x6a, 0x37, 0x89, 0x3d, 0x19, 0xc0, 0xc3, 0x3d, 0xcd, 0xf9, 0x80, 0x3e, 0x4c, 0x14, 0x3a, 0x3e, 0x13, 0x77, 0x23, 0x3e, 0xac, 0x45, 0x85, 0xbe, 0xb2, 0xdf, 0xe8, 0x3d, 0xa4, 0x96, 0x90, 0xbe, 0x69, 0xf5, 0xf9, 0x3d, 0x3e, 0xe9, 0x84, 0x3e, 0xaa, 0x78, 0x89, 0x3e, 0x7b, 0xa6, 0x83, 0xbe, 0x93, 0x3b, 0x4a, 0xbe, 0x2a, 0x99, 0x90, 0xbe, 0x4f, 0xa9, 0x61, 0x3d, 0xd9, 0xc1, 0x0e, 0xbd, 0x40, 0x68, 0x1c, 0x3e, 0xf0, 0x5c, 0x99, 0x3d, 0xa5, 0xc3, 0x89, 0x3d, 0x62, 0x78, 0x85, 0x3e, 0x2d, 0x37, 0x2a, 0xbe, 0x6f, 0x06, 0x95, 0xbe, 0x56, 0x20, 0x62, 0x3e, 0xc4, 0xb1, 0x4b, 0x3d, 0x18, 0xbd, 0x6c, 0xbe, 0xe5, 0xb4, 0x9b, 0xbe, 0x05, 0x28, 0xa1, 0xbe, 0x77, 0xe7, 0x64, 0xbe, 0x5c, 0x91, 0xc3, 0xbd, 0x91, 0xd8, 0x72, 0xbe, 0x7a, 0x59, 0xb8, 0x3b, 0xca, 0x20, 0x91, 0xbe, 0xcf, 0x78, 0x68, 0x3e, 0x7a, 0x71, 0x29, 0x3e, 0xc8, 0xcb, 0x02, 0x3e, 0x88, 0x09, 0xd7, 0x3d, 0x80, 0x12, 0xf8, 0x3d, 0x30, 0xda, 0xe7, 0x3c, 0x00, 0xba, 0xd2, 0x3d, 0x3c, 0xc6, 0xd9, 0x3d, 0x10, 0x71, 0x5e, 0x3d, 0xaf, 0x58, 0x82, 0xbe, 0xa6, 0xd2, 0xb8, 0xbd, 0xfe, 0x38, 0x6b, 0xbe, 0x78, 0xdc, 0x11, 0xbd, 0x7a, 0x6f, 0xd2, 0xbd, 0x18, 0x3f, 0x27, 0x3d, 0xa0, 0x53, 0x6b, 0xbc, 0x86, 0x8a, 0x1d, 0x3e, 0xe6, 0x63, 0xef, 0xbd, 0x68, 0x1b, 0x96, 0xbd, 0xf5, 0x7b, 0x90, 0xbe, 0x0e, 0x8f, 0x71, 0x3e, 0xa6, 0xa2, 0x26, 0xbe, 0xc0, 0xb3, 0xdd, 0xbc, 0x8e, 0x08, 0x16, 0xbe, 0xec, 0xba, 0xd7, 0xbd, 0xf4, 0xd2, 0x17, 0x3e, 0xbe, 0x7b, 0x4e, 0x3e, 0x12, 0x65, 0x49, 0xbe, 0x22, 0x93, 0x6f, 0xbe, 0xee, 0xf2, 0x4f, 0x3e, 0xb6, 0x9d, 0x8c, 0xbe, 0x3d, 0xb2, 0x44, 0xbe, 0xb4, 0x79, 0xb8, 0xbd, 0x6d, 0x7b, 0x45, 0x3d, 0x15, 0x45, 0x36, 0x3d, 0xb8, 0x83, 0x93, 0xbe, 0x9f, 0x9d, 0x1d, 0x3e, 0x43, 0x5f, 0x81, 0x3e, 0x78, 0x52, 0xcf, 0x3b, 0xcb, 0x0f, 0x20, 0x3e, 0xc1, 0x37, 0xdd, 0x3d, 0x5c, 0xf6, 0x83, 0xbe, 0xe9, 0x56, 0xba, 0x3d, 0xdd, 0xe1, 0x13, 0xbe, 0x03, 0x96, 0xa5, 0xbd, 0x35, 0x21, 0x90, 0x3a, 0x3e, 0x6c, 0x53, 0x3e, 0x39, 0xb5, 0x24, 0x3e, 0x4d, 0x46, 0xe7, 0x3c, 0xb0, 0xb6, 0x2f, 0xbd, 0xd4, 0xd6, 0x8f, 0xbc, 0xae, 0xdc, 0xc9, 0xbd, 0x72, 0xb6, 0x66, 0xbe, 0x37, 0x8b, 0x80, 0xbe, 0x1c, 0x75, 0x00, 0xbe, 0x72, 0xb1, 0xe5, 0xbd, 0x7d, 0xb7, 0x39, 0x3e, 0xf4, 0xdc, 0x0d, 0xbc, 0x3d, 0x7a, 0x59, 0xbe, 0xe8, 0xa5, 0x46, 0x3e, 0x18, 0x6e, 0xca, 0x3d, 0xe5, 0x49, 0x7e, 0x3d, 0x49, 0x6e, 0x4c, 0xbe, 0xe4, 0x6a, 0x4b, 0xbe, 0x0f, 0xaf, 0x5c, 0xbe, 0x02, 0x15, 0x27, 0x3e, 0x2e, 0x65, 0x5a, 0x3e, 0x1b, 0x08, 0xe0, 0x3d, 0x23, 0x1e, 0x25, 0xbe, 0x5e, 0x8a, 0x19, 0xbe, 0x32, 0x78, 0x35, 0xbe, 0x2b, 0x50, 0x6b, 0x3e, 0x64, 0xaf, 0x76, 0xbe, 0x05, 0xd3, 0x92, 0x3d, 0x17, 0x6d, 0x02, 0xbe, 0x73, 0x69, 0x63, 0x3e, 0x72, 0x29, 0x11, 0x3d, 0x8f, 0xb8, 0x46, 0x3e, 0xc2, 0xaa, 0xa7, 0xbe, 0xe2, 0xdc, 0xa0, 0x3d, 0x73, 0xb9, 0xf8, 0xbd, 0xfb, 0xbf, 0xfd, 0xbd, 0x8b, 0xb5, 0xb0, 0x3c, 0xb6, 0xde, 0x2a, 0x3e, 0x68, 0x44, 0x20, 0x3e, 0xf7, 0x2e, 0xa8, 0xbe, 0xea, 0xd0, 0xc3, 0xbd, 0x86, 0x45, 0x87, 0xbd, 0x4d, 0x9b, 0x50, 0x3e, 0x81, 0x8f, 0x79, 0x3e, 0x7f, 0x3c, 0x97, 0xbe, 0xa8, 0xd1, 0x9a, 0xbe, 0xdd, 0x59, 0xb8, 0xbc, 0x65, 0xfc, 0x2a, 0xbe, 0x55, 0x9a, 0x6d, 0x3e, 0x8f, 0xda, 0xb9, 0x3d, 0x8b, 0xa0, 0xde, 0xbc, 0xf5, 0x03, 0xb6, 0x3d, 0x0d, 0xe9, 0x88, 0xbe, 0x2a, 0x12, 0x1e, 0xbe, 0xdd, 0x99, 0xab, 0x3e, 0xc5, 0xce, 0xf2, 0x3d, 0x56, 0x65, 0xb5, 0xbd, 0xf8, 0xd1, 0xe5, 0x3d, 0x84, 0xe3, 0x45, 0xbd, 0xa8, 0xb2, 0x23, 0xbd, 0x5d, 0xbe, 0x61, 0x3e, 0xbe, 0x2d, 0x01, 0xbd, 0x03, 0x10, 0x6c, 0xbe, 0x7d, 0x80, 0x9f, 0x3d, 0xc5, 0x09, 0xa5, 0x3c, 0x73, 0xcc, 0x84, 0x3b, 0x18, 0x89, 0xa1, 0xbe, 0x78, 0x7f, 0x42, 0x3b, 0x21, 0x65, 0xa3, 0xbe, 0xf2, 0x99, 0xc8, 0x3c, 0x2c, 0x7b, 0x6b, 0x3e, 0x2b, 0x9b, 0x2b, 0x3e, 0xd2, 0xf2, 0xc7, 0x3e, 0xc7, 0xf8, 0xcd, 0x3d, 0x52, 0xf0, 0x49, 0x3e, 0x5f, 0x7f, 0x36, 0xbe, 0xac, 0xa5, 0xd4, 0xbd, 0x63, 0x94, 0xee, 0xbe, 0xd9, 0x14, 0x61, 0x3e, 0xbd, 0x5f, 0xdd, 0xbd, 0xdd, 0xc1, 0x6b, 0xbd, 0x59, 0x19, 0xe6, 0x3d, 0x7d, 0x00, 0xe6, 0xbd, 0xf0, 0x62, 0x80, 0xbd, 0x7a, 0x7e, 0x5d, 0xbe, 0xbf, 0x4e, 0xb0, 0xbd, 0xcb, 0xcd, 0x03, 0x3e, 0xd8, 0x03, 0x77, 0xbe, 0xcb, 0xf5, 0x38, 0xbd, 0x98, 0x80, 0x1b, 0xbe, 0x55, 0xe1, 0x46, 0x3e, 0x25, 0x5e, 0xcc, 0xbd, 0x2d, 0xbc, 0xcc, 0xbc, 0x0a, 0xa3, 0x09, 0xbe, 0x1f, 0x3e, 0xbb, 0x3d, 0x2d, 0x8c, 0xd3, 0xbd, 0xe4, 0x4c, 0x40, 0xbe, 0xc3, 0xc9, 0x0c, 0xbe, 0xe5, 0x50, 0xba, 0x3b, 0xf5, 0xb5, 0x10, 0xbe, 0x20, 0xeb, 0x47, 0xbe, 0xf6, 0x18, 0x5e, 0x3e, 0xa8, 0x19, 0x78, 0x3e, 0x51, 0xc5, 0x79, 0x3e, 0x56, 0x42, 0x0b, 0xbe, 0xf6, 0x69, 0x8d, 0xbd, 0xae, 0x9f, 0x1a, 0x3e, 0x15, 0x4a, 0x8e, 0xbd, 0x0b, 0x4e, 0xdd, 0xbd, 0xc1, 0x74, 0x0d, 0x3e, 0xdb, 0xc9, 0xce, 0xbb, 0x61, 0x8b, 0x46, 0x3e, 0xd4, 0x9b, 0x89, 0xbe, 0xf7, 0xa0, 0x8b, 0xbe, 0xa1, 0x28, 0x56, 0x3e, 0x48, 0xe4, 0xd8, 0x3d, 0x3b, 0x39, 0x19, 0x3e, 0x49, 0xa1, 0x98, 0xbe, 0x1a, 0xa9, 0x95, 0xbe, 0xa6, 0x24, 0x14, 0xbe, 0x2c, 0xbc, 0x6a, 0xbe, 0xa0, 0xa3, 0x96, 0x3c, 0x2a, 0xec, 0x41, 0xbe, 0x22, 0x61, 0x32, 0xbe, 0xa9, 0xb6, 0x62, 0x3e, 0xd7, 0xa3, 0x8c, 0xbd, 0xf6, 0xce, 0x0a, 0x3e, 0x04, 0x1e, 0x97, 0xbe, 0x3f, 0x37, 0x1b, 0xbe, 0x9f, 0xd0, 0x76, 0x3e, 0x4e, 0x05, 0x32, 0xbe, 0x23, 0xad, 0x88, 0x3e, 0x87, 0x99, 0x63, 0xbe, 0x71, 0x31, 0x9b, 0xbe, 0x02, 0xef, 0x58, 0x3e, 0xfc, 0x4c, 0x55, 0x3e, 0x03, 0x4b, 0xdc, 0x3c, 0xe1, 0xc1, 0x54, 0xbd, 0x60, 0xea, 0xa5, 0xbd, 0xc0, 0x84, 0x6f, 0x3e, 0x2e, 0x1b, 0x8e, 0x3b, 0x1e, 0xac, 0x3d, 0x3e, 0xbc, 0xca, 0x76, 0xbd, 0xa5, 0xfd, 0x44, 0xbe, 0x68, 0x6e, 0xed, 0xbd, 0x0e, 0x11, 0x05, 0x3e, 0x4a, 0x89, 0x84, 0x3e, 0x2a, 0x35, 0x21, 0x3e, 0xaa, 0x32, 0x09, 0x3e, 0x64, 0x9b, 0xe1, 0xbd, 0x4e, 0x43, 0xa3, 0xbe, 0x85, 0xe2, 0x6b, 0xbe, 0xeb, 0x79, 0x7e, 0xbe, 0x58, 0x75, 0x9c, 0xbe, 0x26, 0x23, 0xe6, 0x3d, 0xc7, 0x3d, 0x3e, 0x3e, 0x0d, 0x77, 0x27, 0xbe, 0x6d, 0xe8, 0x80, 0x3e, 0x86, 0xbd, 0x5a, 0xbe, 0x03, 0x42, 0xc6, 0x3d, 0x88, 0xf6, 0x54, 0x3e, 0xbe, 0xb1, 0x36, 0x3e, 0x9e, 0xc5, 0x4d, 0xbe, 0xd2, 0x9a, 0x63, 0x3e, 0x8a, 0x5a, 0x10, 0x3e, 0xf5, 0x07, 0xe0, 0x3d, 0xcd, 0x4c, 0x6d, 0xbe, 0x4f, 0x4b, 0x3a, 0xbe, 0x41, 0x5c, 0x32, 0x3e, 0x41, 0x2a, 0x78, 0xbe, 0xd7, 0xe4, 0xc2, 0xbc, 0x47, 0xd2, 0x58, 0x3e, 0xb1, 0x8f, 0xb1, 0xbd, 0x26, 0x97, 0x4b, 0x3e, 0x8d, 0x1e, 0x8f, 0x3c, 0x82, 0x46, 0x00, 0xbe, 0xe5, 0x2e, 0x8b, 0xbe, 0xf9, 0x03, 0xd6, 0x3c, 0x0c, 0x4a, 0x6c, 0x3d, 0x42, 0xd5, 0xfe, 0xbd, 0x4d, 0x0f, 0x0d, 0x3e, 0x77, 0xeb, 0xb1, 0x3d, 0x10, 0x33, 0xb1, 0xbd, 0x3e, 0x95, 0xba, 0xbd, 0x30, 0x52, 0x6f, 0x3e, 0xfd, 0x5d, 0xa3, 0x3d, 0xd0, 0x79, 0x97, 0x3d, 0xf9, 0xc1, 0x8b, 0xbe, 0x15, 0x29, 0x35, 0xbe, 0xc3, 0xc3, 0x17, 0x3d, 0xb2, 0x65, 0xb1, 0xbd, 0xbe, 0xab, 0x76, 0x3e, 0x0c, 0x44, 0x56, 0xbe, 0x29, 0x03, 0x18, 0xbd, 0x9d, 0xf7, 0x9b, 0x3e, 0xb1, 0x55, 0x3b, 0xbe, 0x10, 0xfb, 0x78, 0x3e, 0x03, 0x41, 0x89, 0xbe, 0x5d, 0x4b, 0x11, 0x3d, 0x4d, 0x94, 0xdd, 0x3c, 0xbf, 0xc0, 0x81, 0xbe, 0x5b, 0xdb, 0x2f, 0xbe, 0xc7, 0xc6, 0x9d, 0x3e, 0x0d, 0xd1, 0x67, 0xbe, 0xa9, 0x67, 0x97, 0xbe, 0x74, 0x7e, 0x3f, 0xbe, 0x89, 0x2a, 0x8d, 0x3e, 0xa2, 0x11, 0x71, 0xbe, 0xe4, 0x5f, 0xb0, 0x3d, 0x4c, 0xed, 0xd9, 0x3d, 0xe2, 0x84, 0x76, 0xbd, 0x8b, 0x60, 0x85, 0xbe, 0xa4, 0xc5, 0x1e, 0xbe, 0x42, 0xa5, 0x26, 0x3e, 0xcd, 0x9f, 0x35, 0xbe, 0xff, 0x89, 0x18, 0x3d, 0x11, 0x61, 0x19, 0xbe, 0x55, 0xd7, 0x0f, 0x3e, 0x34, 0x07, 0x54, 0x3d, 0x2b, 0x3a, 0xea, 0xbd, 0x6b, 0xc9, 0x7a, 0xbd, 0x09, 0x90, 0x7f, 0x3d, 0xe4, 0x4b, 0x44, 0x3e, 0x19, 0xb1, 0x5a, 0x3e, 0xc2, 0xac, 0x0e, 0x3d, 0x41, 0x96, 0x19, 0x3d, 0xad, 0x66, 0xb9, 0xbd, 0x4f, 0x53, 0x3f, 0x3e, 0x3a, 0x36, 0x9d, 0xbe, 0xd5, 0xf5, 0x06, 0x3e, 0x02, 0x67, 0xc6, 0xbe, 0x95, 0xbe, 0x5e, 0xbe, 0x06, 0x1b, 0x76, 0xbd, 0x2a, 0x91, 0xa3, 0x3c, 0xf8, 0x40, 0x92, 0x3d, 0x9a, 0x66, 0x45, 0xbe, 0x34, 0xeb, 0x0d, 0xbe, 0x1b, 0x46, 0x0e, 0x3e, 0x50, 0xe0, 0x08, 0x3d, 0xa0, 0x0d, 0xaf, 0x3c, 0x2c, 0xe9, 0x96, 0x3d, 0x7d, 0xd6, 0xa1, 0x3d, 0x77, 0x94, 0x24, 0x3e, 0x80, 0x1a, 0xff, 0xbd, 0x08, 0xef, 0x5c, 0xbd, 0xca, 0xeb, 0x45, 0x3e, 0x5a, 0x13, 0xa0, 0xbd, 0x85, 0x2d, 0x49, 0xbe, 0xc7, 0xa3, 0x0d, 0xbe, 0x00, 0xee, 0xd7, 0xba, 0x91, 0xae, 0x1c, 0xbe, 0xab, 0x79, 0x86, 0x3e, 0x70, 0xb5, 0x44, 0xbe, 0x4d, 0xff, 0x92, 0xbe, 0x93, 0x44, 0x09, 0xbe, 0x52, 0x63, 0x2d, 0xbe, 0xc8, 0x38, 0x85, 0xbd, 0xb0, 0xd0, 0xc2, 0x3c, 0xde, 0x4e, 0x8b, 0xbe, 0x60, 0x46, 0x16, 0xbd, 0x87, 0x2d, 0x1a, 0xbe, 0xdf, 0xd4, 0x86, 0x3e, 0x80, 0xfc, 0x5c, 0x3d, 0x56, 0xac, 0x4c, 0x3e, 0xb2, 0x51, 0xbe, 0xbd, 0x06, 0x76, 0x63, 0x3e, 0xc2, 0x40, 0x91, 0xbe, 0xf4, 0x5a, 0xe8, 0xbd, 0x62, 0xd9, 0x6f, 0x3e, 0x2e, 0xb5, 0x6f, 0x3e, 0xf2, 0x92, 0xba, 0xbd, 0x5c, 0x0c, 0x6a, 0xbd, 0xac, 0xa9, 0x24, 0xbe, 0xd8, 0xae, 0x32, 0x3d, 0xaa, 0x35, 0x5c, 0x3e, 0xf6, 0xdf, 0x9a, 0x3d, 0x2e, 0xb4, 0x3f, 0x3e, 0xbb, 0xff, 0x8b, 0xbe, 0xf4, 0x2a, 0x54, 0xbe, 0x0f, 0x4b, 0x52, 0xbe, 0x80, 0x2a, 0xf8, 0x3d, 0x7e, 0xff, 0x26, 0xbe, 0x24, 0x76, 0x04, 0x3e, 0x7d, 0x2f, 0x52, 0x3e, 0x5b, 0xc1, 0x0e, 0x3e, 0x80, 0x9c, 0x1d, 0xbe, 0x99, 0xa6, 0xcb, 0x3d, 0xff, 0x3e, 0x39, 0xbe, 0x89, 0xd3, 0x52, 0xbe, 0xa8, 0xf4, 0xc2, 0x3d, 0x97, 0xfc, 0x5d, 0xbe, 0x31, 0x8b, 0x1c, 0x3d, 0x8a, 0xb3, 0xe1, 0x3d, 0xa8, 0xb3, 0x84, 0xbd, 0x98, 0x3c, 0xaa, 0x3c, 0x1d, 0x8a, 0x2f, 0xbe, 0x27, 0x4b, 0x20, 0x3e, 0xf0, 0x8a, 0x56, 0xbd, 0x56, 0x32, 0xf4, 0x3d, 0x0c, 0xfd, 0x4a, 0x3e, 0x0b, 0x59, 0x01, 0x3e, 0x35, 0x23, 0x07, 0x3e, 0x59, 0x82, 0x7b, 0xbd, 0x7f, 0xd9, 0x96, 0xbe, 0x2b, 0xea, 0xd1, 0xba, 0xe9, 0x73, 0x9d, 0x3d, 0x82, 0x71, 0xe1, 0xbd, 0x9e, 0xfe, 0xff, 0xff, 0x04, 0x00, 0x00, 0x00, 0x80, 0x00, 0x00, 0x00, 0x7a, 0xfa, 0xdd, 0xbb, 0x4a, 0xcd, 0xa5, 0xbc, 0x3d, 0xba, 0xf6, 0xbb, 0x84, 0x97, 0xa4, 0xbc, 0x9c, 0xdd, 0x4e, 0xbd, 0x00, 0x00, 0x00, 0x00, 0xe2, 0x1d, 0xf8, 0xbc, 0x00, 0x00, 0x00, 0x00, 0x53, 0x8a, 0xd0, 0xbd, 0x1a, 0xf4, 0x84, 0x3b, 0x00, 0x00, 0x00, 0x00, 0x00, 0x00, 0x00, 0x00, 0x35, 0xa9, 0xfc, 0xbc, 0x00, 0x00, 0x00, 0x00, 0x84, 0x83, 0xbf, 0xbd, 0x00, 0x00, 0x00, 0x00, 0x00, 0x00, 0x00, 0x00, 0xc3, 0x57, 0xa8, 0xbb, 0x00, 0x00, 0x00, 0x00, 0xdb, 0xc3, 0xcf, 0xbd, 0xcf, 0x7f, 0x4a, 0xbc, 0x00, 0x00, 0x00, 0x00, 0x11, 0x04, 0x7c, 0xbc, 0x85, 0x0d, 0xf9, 0xbc, 0x1e, 0x6a, 0x16, 0xbf, 0xae, 0x44, 0x15, 0xbc, 0x61, 0xce, 0x94, 0xbc, 0x5f, 0xd3, 0x95, 0xbc, 0x3d, 0xb4, 0xb5, 0xbc, 0x08, 0x64, 0xe9, 0xbd, 0x00, 0x00, 0x00, 0x00, 0xd8, 0xbc, 0xd1, 0xbd, 0x2a, 0xff, 0xff, 0xff, 0x04, 0x00, 0x00, 0x00, 0x08, 0x00, 0x00, 0x00, 0x27, 0xa4, 0xb0, 0x3e, 0x25, 0xa4, 0xb0, 0xbe, 0x3e, 0xff, 0xff, 0xff, 0x04, 0x00, 0x00, 0x00, 0x20, 0x00, 0x00, 0x00, 0xea, 0xb1, 0x1c, 0xbe, 0x6b, 0x1a, 0xf0, 0xbf, 0xe2, 0xd2, 0x9d, 0xbd, 0xbc, 0xd1, 0xc6, 0xbd, 0xd0, 0x6c, 0x84, 0xbe, 0xfc, 0xc8, 0xa2, 0xbd, 0x39, 0x95, 0x87, 0xbe, 0x25, 0xd1, 0x5e, 0xbe, 0x5c, 0xfa, 0xff, 0xff, 0x60, 0xfa, 0xff, 0xff, 0x0f, 0x00, 0x00, 0x00, 0x4d, 0x4c, 0x49, 0x52, 0x20, 0x43, 0x6f, 0x6e, 0x76, 0x65, 0x72, 0x74, 0x65, 0x64, 0x2e, 0x00, 0x01, 0x00, 0x00, 0x00, 0x14, 0x00, 0x00, 0x00, 0x00, 0x00, 0x0e, 0x00, 0x18, 0x00, 0x14, 0x00, 0x10, 0x00, 0x0c, 0x00, 0x08, 0x00, 0x04, 0x00, 0x0e, 0x00, 0x00, 0x00, 0x14, 0x00, 0x00, 0x00, 0x1c, 0x00, 0x00, 0x00, 0x24, 0x01, 0x00, 0x00, 0x28, 0x01, 0x00, 0x00, 0x2c, 0x01, 0x00, 0x00, 0x04, 0x00, 0x00, 0x00, 0x6d, 0x61, 0x69, 0x6e, 0x00, 0x00, 0x00, 0x00, 0x04, 0x00, 0x00, 0x00, 0xcc, 0x00, 0x00, 0x00, 0x84, 0x00, 0x00, 0x00, 0x50, 0x00, 0x00, 0x00, 0x14, 0x00, 0x00, 0x00, 0x00, 0x00, 0x0e, 0x00, 0x1a, 0x00, 0x14, 0x00, 0x10, 0x00, 0x0c, 0x00, 0x0b, 0x00, 0x04, 0x00, 0x0e, 0x00, 0x00, 0x00, 0x1c, 0x00, 0x00, 0x00, 0x00, 0x00, 0x00, 0x09, 0x1c, 0x00, 0x00, 0x00, 0x20, 0x00, 0x00, 0x00, 0x01, 0x00, 0x00, 0x00, 0x00, 0x00, 0x06, 0x00, 0x08, 0x00, 0x04, 0x00, 0x06, 0x00, 0x00, 0x00, 0x00, 0x00, 0x80, 0x3f, 0x01, 0x00, 0x00, 0x00, 0x0a, 0x00, 0x00, 0x00, 0x01, 0x00, 0x00, 0x00, 0x09, 0x00, 0x00, 0x00, 0x9a, 0xff, 0xff, 0xff, 0x10, 0x00, 0x00, 0x00, 0x00, 0x00, 0x00, 0x08, 0x0c, 0x00, 0x00, 0x00, 0x10, 0x00, 0x00, 0x00, 0x24, 0xfb, 0xff, 0xff, 0x01, 0x00, 0x00, 0x00, 0x09, 0x00, 0x00, 0x00, 0x03, 0x00, 0x00, 0x00, 0x08, 0x00, 0x00, 0x00, 0x06, 0x00, 0x00, 0x00, 0x02, 0x00, 0x00, 0x00, 0xca, 0xff, 0xff, 0xff, 0x10, 0x00, 0x00, 0x00, 0x00, 0x00, 0x00, 0x08, 0x10, 0x00, 0x00, 0x00, 0x14, 0x00, 0x00, 0x00, 0xba, 0xff, 0xff, 0xff, 0x00, 0x00, 0x00, 0x01, 0x01, 0x00, 0x00, 0x00, 0x08, 0x00, 0x00, 0x00, 0x03, 0x00, 0x00, 0x00, 0x07, 0x00, 0x00, 0x00, 0x05, 0x00, 0x00, 0x00, 0x01, 0x00, 0x00, 0x00, 0x00, 0x00, 0x0e, 0x00, 0x16, 0x00, 0x00, 0x00, 0x10, 0x00, 0x0c, 0x00, 0x0b, 0x00, 0x04, 0x00, 0x0e, 0x00, 0x00, 0x00, 0x18, 0x00, 0x00, 0x00, 0x00, 0x00, 0x00, 0x08, 0x18, 0x00, 0x00, 0x00, 0x1c, 0x00, 0x00, 0x00, 0x00, 0x00, 0x06, 0x00, 0x08, 0x00, 0x07, 0x00, 0x06, 0x00, 0x00, 0x00, 0x00, 0x00, 0x00, 0x01, 0x01, 0x00, 0x00, 0x00, 0x07, 0x00, 0x00, 0x00, 0x03, 0x00, 0x00, 0x00, 0x00, 0x00, 0x00, 0x00, 0x04, 0x00, 0x00, 0x00, 0x03, 0x00, 0x00, 0x00, 0x01, 0x00, 0x00, 0x00, 0x0a, 0x00, 0x00, 0x00, 0x01, 0x00, 0x00, 0x00, 0x00, 0x00, 0x00, 0x00, 0x0b, 0x00, 0x00, 0x00, 0x04, 0x04, 0x00, 0x00, 0x94, 0x03, 0x00, 0x00, 0x24, 0x03, 0x00, 0x00, 0xd0, 0x02, 0x00, 0x00, 0x88, 0x02, 0x00, 0x00, 0x3c, 0x02, 0x00, 0x00, 0xf0, 0x01, 0x00, 0x00, 0x68, 0x01, 0x00, 0x00, 0xd8, 0x00, 0x00, 0x00, 0x60, 0x00, 0x00, 0x00, 0x04, 0x00, 0x00, 0x00, 0x3e, 0xfc, 0xff, 0xff, 0x00, 0x00, 0x00, 0x01, 0x14, 0x00, 0x00, 0x00, 0x1c, 0x00, 0x00, 0x00, 0x1c, 0x00, 0x00, 0x00, 0x0b, 0x00, 0x00, 0x00, 0x34, 0x00, 0x00, 0x00, 0x02, 0x00, 0x00, 0x00, 0xff, 0xff, 0xff, 0xff, 0x02, 0x00, 0x00, 0x00, 0x28, 0xfc, 0xff, 0xff, 0x19, 0x00, 0x00, 0x00, 0x53, 0x74, 0x61, 0x74, 0x65, 0x66, 0x75, 0x6c, 0x50, 0x61, 0x72, 0x74, 0x69, 0x74, 0x69, 0x6f, 0x6e, 0x65, 0x64, 0x43, 0x61, 0x6c, 0x6c, 0x3a, 0x30, 0x00, 0x00, 0x00, 0x02, 0x00, 0x00, 0x00, 0x01, 0x00, 0x00, 0x00, 0x02, 0x00, 0x00, 0x00, 0x96, 0xfc, 0xff, 0xff, 0x00, 0x00, 0x00, 0x01, 0x14, 0x00, 0x00, 0x00, 0x1c, 0x00, 0x00, 0x00, 0x1c, 0x00, 0x00, 0x00, 0x0a, 0x00, 0x00, 0x00, 0x50, 0x00, 0x00, 0x00, 0x02, 0x00, 0x00, 0x00, 0xff, 0xff, 0xff, 0xff, 0x02, 0x00, 0x00, 0x00, 0x80, 0xfc, 0xff, 0xff, 0x34, 0x00, 0x00, 0x00, 0x73, 0x65, 0x71, 0x75, 0x65, 0x6e, 0x74, 0x69, 0x61, 0x6c, 0x2f, 0x64, 0x65, 0x6e, 0x73, 0x65, 0x5f, 0x32, 0x2f, 0x4d, 0x61, 0x74, 0x4d, 0x75, 0x6c, 0x3b, 0x73, 0x65, 0x71, 0x75, 0x65, 0x6e, 0x74, 0x69, 0x61, 0x6c, 0x2f, 0x64, 0x65, 0x6e, 0x73, 0x65, 0x5f, 0x32, 0x2f, 0x42, 0x69, 0x61, 0x73, 0x41, 0x64, 0x64, 0x00, 0x00, 0x00, 0x00, 0x02, 0x00, 0x00, 0x00, 0x01, 0x00, 0x00, 0x00, 0x02, 0x00, 0x00, 0x00, 0x0a, 0xfd, 0xff, 0xff, 0x00, 0x00, 0x00, 0x01, 0x14, 0x00, 0x00, 0x00, 0x1c, 0x00, 0x00, 0x00, 0x1c, 0x00, 0x00, 0x00, 0x09, 0x00, 0x00, 0x00, 0x68, 0x00, 0x00, 0x00, 0x02, 0x00, 0x00, 0x00, 0xff, 0xff, 0xff, 0xff, 0x08, 0x00, 0x00, 0x00, 0xf4, 0xfc, 0xff, 0xff, 0x4c, 0x00, 0x00, 0x00, 0x73, 0x65, 0x71, 0x75, 0x65, 0x6e, 0x74, 0x69, 0x61, 0x6c, 0x2f, 0x64, 0x65, 0x6e, 0x73, 0x65, 0x5f, 0x31, 0x2f, 0x4d, 0x61, 0x74, 0x4d, 0x75, 0x6c, 0x3b, 0x73, 0x65, 0x71, 0x75, 0x65, 0x6e, 0x74, 0x69, 0x61, 0x6c, 0x2f, 0x64, 0x65, 0x6e, 0x73, 0x65, 0x5f, 0x31, 0x2f, 0x52, 0x65, 0x6c, 0x75, 0x3b, 0x73, 0x65, 0x71, 0x75, 0x65, 0x6e, 0x74, 0x69, 0x61, 0x6c, 0x2f, 0x64, 0x65, 0x6e, 0x73, 0x65, 0x5f, 0x31, 0x2f, 0x42, 0x69, 0x61, 0x73, 0x41, 0x64, 0x64, 0x00, 0x00, 0x00, 0x00, 0x02, 0x00, 0x00, 0x00, 0x01, 0x00, 0x00, 0x00, 0x08, 0x00, 0x00, 0x00, 0x96, 0xfd, 0xff, 0xff, 0x00, 0x00, 0x00, 0x01, 0x14, 0x00, 0x00, 0x00, 0x1c, 0x00, 0x00, 0x00, 0x1c, 0x00, 0x00, 0x00, 0x08, 0x00, 0x00, 0x00, 0x60, 0x00, 0x00, 0x00, 0x02, 0x00, 0x00, 0x00, 0xff, 0xff, 0xff, 0xff, 0x20, 0x00, 0x00, 0x00, 0x80, 0xfd, 0xff, 0xff, 0x46, 0x00, 0x00, 0x00, 0x73, 0x65, 0x71, 0x75, 0x65, 0x6e, 0x74, 0x69, 0x61, 0x6c, 0x2f, 0x64, 0x65, 0x6e, 0x73, 0x65, 0x2f, 0x4d, 0x61, 0x74, 0x4d, 0x75, 0x6c, 0x3b, 0x73, 0x65, 0x71, 0x75, 0x65, 0x6e, 0x74, 0x69, 0x61, 0x6c, 0x2f, 0x64, 0x65, 0x6e, 0x73, 0x65, 0x2f, 0x52, 0x65, 0x6c, 0x75, 0x3b, 0x73, 0x65, 0x71, 0x75, 0x65, 0x6e, 0x74, 0x69, 0x61, 0x6c, 0x2f, 0x64, 0x65, 0x6e, 0x73, 0x65, 0x2f, 0x42, 0x69, 0x61, 0x73, 0x41, 0x64, 0x64, 0x00, 0x00, 0x02, 0x00, 0x00, 0x00, 0x01, 0x00, 0x00, 0x00, 0x20, 0x00, 0x00, 0x00, 0x86, 0xfe, 0xff, 0xff, 0x00, 0x00, 0x00, 0x01, 0x10, 0x00, 0x00, 0x00, 0x10, 0x00, 0x00, 0x00, 0x07, 0x00, 0x00, 0x00, 0x28, 0x00, 0x00, 0x00, 0xf4, 0xfd, 0xff, 0xff, 0x19, 0x00, 0x00, 0x00, 0x73, 0x65, 0x71, 0x75, 0x65, 0x6e, 0x74, 0x69, 0x61, 0x6c, 0x2f, 0x64, 0x65, 0x6e, 0x73, 0x65, 0x5f, 0x32, 0x2f, 0x4d, 0x61, 0x74, 0x4d, 0x75, 0x6c, 0x00, 0x00, 0x00, 0x02, 0x00, 0x00, 0x00, 0x02, 0x00, 0x00, 0x00, 0x08, 0x00, 0x00, 0x00, 0xce, 0xfe, 0xff, 0xff, 0x00, 0x00, 0x00, 0x01, 0x10, 0x00, 0x00, 0x00, 0x10, 0x00, 0x00, 0x00, 0x06, 0x00, 0x00, 0x00, 0x28, 0x00, 0x00, 0x00, 0x3c, 0xfe, 0xff, 0xff, 0x19, 0x00, 0x00, 0x00, 0x73, 0x65, 0x71, 0x75, 0x65, 0x6e, 0x74, 0x69, 0x61, 0x6c, 0x2f, 0x64, 0x65, 0x6e, 0x73, 0x65, 0x5f, 0x31, 0x2f, 0x4d, 0x61, 0x74, 0x4d, 0x75, 0x6c, 0x00, 0x00, 0x00, 0x02, 0x00, 0x00, 0x00, 0x08, 0x00, 0x00, 0x00, 0x20, 0x00, 0x00, 0x00, 0x16, 0xff, 0xff, 0xff, 0x00, 0x00, 0x00, 0x01, 0x10, 0x00, 0x00, 0x00, 0x10, 0x00, 0x00, 0x00, 0x05, 0x00, 0x00, 0x00, 0x24, 0x00, 0x00, 0x00, 0x84, 0xfe, 0xff, 0xff, 0x17, 0x00, 0x00, 0x00, 0x73, 0x65, 0x71, 0x75, 0x65, 0x6e, 0x74, 0x69, 0x61, 0x6c, 0x2f, 0x64, 0x65, 0x6e, 0x73, 0x65, 0x2f, 0x4d, 0x61, 0x74, 0x4d, 0x75, 0x6c, 0x00, 0x02, 0x00, 0x00, 0x00, 0x20, 0x00, 0x00, 0x00, 0x20, 0x00, 0x00, 0x00, 0x5a, 0xff, 0xff, 0xff, 0x00, 0x00, 0x00, 0x01, 0x10, 0x00, 0x00, 0x00, 0x10, 0x00, 0x00, 0x00, 0x04, 0x00, 0x00, 0x00, 0x34, 0x00, 0x00, 0x00, 0xc8, 0xfe, 0xff, 0xff, 0x27, 0x00, 0x00, 0x00, 0x73, 0x65, 0x71, 0x75, 0x65, 0x6e, 0x74, 0x69, 0x61, 0x6c, 0x2f, 0x64, 0x65, 0x6e, 0x73, 0x65, 0x2f, 0x42, 0x69, 0x61, 0x73, 0x41, 0x64, 0x64, 0x2f, 0x52, 0x65, 0x61, 0x64, 0x56, 0x61, 0x72, 0x69, 0x61, 0x62, 0x6c, 0x65, 0x4f, 0x70, 0x00, 0x01, 0x00, 0x00, 0x00, 0x20, 0x00, 0x00, 0x00, 0xaa, 0xff, 0xff, 0xff, 0x00, 0x00, 0x00, 0x01, 0x10, 0x00, 0x00, 0x00, 0x10, 0x00, 0x00, 0x00, 0x03, 0x00, 0x00, 0x00, 0x38, 0x00, 0x00, 0x00, 0x18, 0xff, 0xff, 0xff, 0x29, 0x00, 0x00, 0x00, 0x73, 0x65, 0x71, 0x75, 0x65, 0x6e, 0x74, 0x69, 0x61, 0x6c, 0x2f, 0x64, 0x65, 0x6e, 0x73, 0x65, 0x5f, 0x32, 0x2f, 0x42, 0x69, 0x61, 0x73, 0x41, 0x64, 0x64, 0x2f, 0x52, 0x65, 0x61, 0x64, 0x56, 0x61, 0x72, 0x69, 0x61, 0x62, 0x6c, 0x65, 0x4f, 0x70, 0x00, 0x00, 0x00, 0x01, 0x00, 0x00, 0x00, 0x02, 0x00, 0x00, 0x00, 0x00, 0x00, 0x16, 0x00, 0x18, 0x00, 0x14, 0x00, 0x00, 0x00, 0x10, 0x00, 0x0c, 0x00, 0x08, 0x00, 0x00, 0x00, 0x00, 0x00, 0x00, 0x00, 0x07, 0x00, 0x16, 0x00, 0x00, 0x00, 0x00, 0x00, 0x00, 0x01, 0x10, 0x00, 0x00, 0x00, 0x10, 0x00, 0x00, 0x00, 0x02, 0x00, 0x00, 0x00, 0x38, 0x00, 0x00, 0x00, 0x84, 0xff, 0xff, 0xff, 0x29, 0x00, 0x00, 0x00, 0x73, 0x65, 0x71, 0x75, 0x65, 0x6e, 0x74, 0x69, 0x61, 0x6c, 0x2f, 0x64, 0x65, 0x6e, 0x73, 0x65, 0x5f, 0x31, 0x2f, 0x42, 0x69, 0x61, 0x73, 0x41, 0x64, 0x64, 0x2f, 0x52, 0x65, 0x61, 0x64, 0x56, 0x61, 0x72, 0x69, 0x61, 0x62, 0x6c, 0x65, 0x4f, 0x70, 0x00, 0x00, 0x00, 0x01, 0x00, 0x00, 0x00, 0x08, 0x00, 0x00, 0x00, 0x00, 0x00, 0x16, 0x00, 0x1c, 0x00, 0x18, 0x00, 0x00, 0x00, 0x14, 0x00, 0x10, 0x00, 0x0c, 0x00, 0x00, 0x00, 0x00, 0x00, 0x08, 0x00, 0x07, 0x00, 0x16, 0x00, 0x00, 0x00, 0x00, 0x00, 0x00, 0x01, 0x14, 0x00, 0x00, 0x00, 0x20, 0x00, 0x00, 0x00, 0x20, 0x00, 0x00, 0x00, 0x01, 0x00, 0x00, 0x00, 0x3c, 0x00, 0x00, 0x00, 0x02, 0x00, 0x00, 0x00, 0xff, 0xff, 0xff, 0xff, 0x20, 0x00, 0x00, 0x00, 0x04, 0x00, 0x04, 0x00, 0x04, 0x00, 0x00, 0x00, 0x1d, 0x00, 0x00, 0x00, 0x73, 0x65, 0x72, 0x76, 0x69, 0x6e, 0x67, 0x5f, 0x64, 0x65, 0x66, 0x61, 0x75, 0x6c, 0x74, 0x5f, 0x64, 0x65, 0x6e, 0x73, 0x65, 0x5f, 0x69, 0x6e, 0x70, 0x75, 0x74, 0x3a, 0x30, 0x00, 0x00, 0x00, 0x02, 0x00, 0x00, 0x00, 0x01, 0x00, 0x00, 0x00, 0x20, 0x00, 0x00, 0x00, 0x02, 0x00, 0x00, 0x00, 0x20, 0x00, 0x00, 0x00, 0x04, 0x00, 0x00, 0x00, 0xf4, 0xff, 0xff, 0xff, 0x19, 0x00, 0x00, 0x00, 0x00, 0x00, 0x00, 0x19, 0x0c, 0x00, 0x0c, 0x00, 0x0b, 0x00, 0x00, 0x00, 0x00, 0x00, 0x04, 0x00, 0x0c, 0x00, 0x00, 0x00, 0x09, 0x00, 0x00, 0x00, 0x00, 0x00, 0x00, 0x09};
const int model_data_len = 7444;